#ifndef MODEL_H
#define MODEL_H

// TFLite model (2380 bytes) — 由 tools/train_dummy.py + tools/emit_model_header.py 生成
// 网络结构: input[10] -> Dense(16, ReLU) -> Dense(2)
// 输入: 5 步 × (temp, humi) Z-score
// 输出: 下一时刻 (temp, humi) Z-score
const unsigned char model[] = {
    0x1c, 0x00, 0x00, 0x00, 0x54, 0x46, 0x4c, 0x33, 0x14, 0x00, 0x20, 0x00, 0x1c, 0x00, 0x18, 0x00,
    0x14, 0x00, 0x10, 0x00, 0x0c, 0x00, 0x00, 0x00, 0x08, 0x00, 0x04, 0x00, 0x14, 0x00, 0x00, 0x00,
    0x1c, 0x00, 0x00, 0x00, 0x90, 0x00, 0x00, 0x00, 0xe8, 0x00, 0x00, 0x00, 0x28, 0x05, 0x00, 0x00,
    0x38, 0x05, 0x00, 0x00, 0xf8, 0x08, 0x00, 0x00, 0x03, 0x00, 0x00, 0x00, 0x01, 0x00, 0x00, 0x00,
    0x10, 0x00, 0x00, 0x00, 0x00, 0x00, 0x0a, 0x00, 0x10, 0x00, 0x0c, 0x00, 0x08, 0x00, 0x04, 0x00,
    0x0a, 0x00, 0x00, 0x00, 0x0c, 0x00, 0x00, 0x00, 0x1c, 0x00, 0x00, 0x00, 0x3c, 0x00, 0x00, 0x00,
    0x0f, 0x00, 0x00, 0x00, 0x73, 0x65, 0x72, 0x76, 0x69, 0x6e, 0x67, 0x5f, 0x64, 0x65, 0x66, 0x61,
    0x75, 0x6c, 0x74, 0x00, 0x01, 0x00, 0x00, 0x00, 0x04, 0x00, 0x00, 0x00, 0x98, 0xff, 0xff, 0xff,
    0x06, 0x00, 0x00, 0x00, 0x04, 0x00, 0x00, 0x00, 0x08, 0x00, 0x00, 0x00, 0x6f, 0x75, 0x74, 0x70,
    0x75, 0x74, 0x5f, 0x30, 0x00, 0x00, 0x00, 0x00, 0x01, 0x00, 0x00, 0x00, 0x04, 0x00, 0x00, 0x00,
    0x6e, 0xfb, 0xff, 0xff, 0x04, 0x00, 0x00, 0x00, 0x07, 0x00, 0x00, 0x00, 0x69, 0x6e, 0x70, 0x75,
    0x74, 0x5f, 0x30, 0x00, 0x02, 0x00, 0x00, 0x00, 0x34, 0x00, 0x00, 0x00, 0x04, 0x00, 0x00, 0x00,
    0xdc, 0xff, 0xff, 0xff, 0x09, 0x00, 0x00, 0x00, 0x04, 0x00, 0x00, 0x00, 0x13, 0x00, 0x00, 0x00,
    0x43, 0x4f, 0x4e, 0x56, 0x45, 0x52, 0x53, 0x49, 0x4f, 0x4e, 0x5f, 0x4d, 0x45, 0x54, 0x41, 0x44,
    0x41, 0x54, 0x41, 0x00, 0x08, 0x00, 0x0c, 0x00, 0x08, 0x00, 0x04, 0x00, 0x08, 0x00, 0x00, 0x00,
    0x08, 0x00, 0x00, 0x00, 0x04, 0x00, 0x00, 0x00, 0x13, 0x00, 0x00, 0x00, 0x6d, 0x69, 0x6e, 0x5f,
    0x72, 0x75, 0x6e, 0x74, 0x69, 0x6d, 0x65, 0x5f, 0x76, 0x65, 0x72, 0x73, 0x69, 0x6f, 0x6e, 0x00,
    0x0a, 0x00, 0x00, 0x00, 0x3c, 0x04, 0x00, 0x00, 0x34, 0x04, 0x00, 0x00, 0x1c, 0x04, 0x00, 0x00,
    0x84, 0x03, 0x00, 0x00, 0xf4, 0x00, 0x00, 0x00, 0xa4, 0x00, 0x00, 0x00, 0x9c, 0x00, 0x00, 0x00,
    0x94, 0x00, 0x00, 0x00, 0x74, 0x00, 0x00, 0x00, 0x04, 0x00, 0x00, 0x00, 0x0a, 0xfc, 0xff, 0xff,
    0x04, 0x00, 0x00, 0x00, 0x60, 0x00, 0x00, 0x00, 0x10, 0x00, 0x00, 0x00, 0x00, 0x00, 0x00, 0x00,
    0x08, 0x00, 0x0e, 0x00, 0x08, 0x00, 0x04, 0x00, 0x08, 0x00, 0x00, 0x00, 0x10, 0x00, 0x00, 0x00,
    0x24, 0x00, 0x00, 0x00, 0x00, 0x00, 0x06, 0x00, 0x08, 0x00, 0x04, 0x00, 0x06, 0x00, 0x00, 0x00,
    0x04, 0x00, 0x00, 0x00, 0x00, 0x00, 0x00, 0x00, 0x0c, 0x00, 0x18, 0x00, 0x14, 0x00, 0x10, 0x00,
    0x0c, 0x00, 0x04, 0x00, 0x0c, 0x00, 0x00, 0x00, 0x9a, 0x18, 0x60, 0x61, 0x4a, 0x96, 0x3e, 0x16,
    0x02, 0x00, 0x00, 0x00, 0x02, 0x00, 0x00, 0x00, 0x04, 0x00, 0x00, 0x00, 0x06, 0x00, 0x00, 0x00,
    0x32, 0x2e, 0x32, 0x31, 0x2e, 0x30, 0x00, 0x00, 0x76, 0xfc, 0xff, 0xff, 0x04, 0x00, 0x00, 0x00,
    0x10, 0x00, 0x00, 0x00, 0x31, 0x2e, 0x35, 0x2e, 0x30, 0x00, 0x00, 0x00, 0x00, 0x00, 0x00, 0x00,
    0x00, 0x00, 0x00, 0x00, 0xcc, 0xf8, 0xff, 0xff, 0xd0, 0xf8, 0xff, 0xff, 0x9a, 0xfc, 0xff, 0xff,
    0x04, 0x00, 0x00, 0x00, 0x40, 0x00, 0x00, 0x00, 0xb4, 0xc4, 0x88, 0xbd, 0x47, 0x49, 0x0f, 0xbe,
    0x1c, 0x42, 0x66, 0x3e, 0xe6, 0xff, 0x2e, 0x3e, 0x90, 0x24, 0xfc, 0xbc, 0xa1, 0xb4, 0xce, 0xbd,
    0xa0, 0x80, 0x1f, 0x3c, 0x41, 0x0a, 0xac, 0x3d, 0x03, 0xe6, 0x1a, 0xbe, 0x8a, 0xc0, 0x43, 0x3d,
    0xb1, 0x57, 0x2e, 0x3e, 0x6a, 0xf7, 0xe4, 0xbd, 0x89, 0x86, 0x30, 0xbc, 0x14, 0xa1, 0x00, 0x3e,
    0xaf, 0x95, 0x3c, 0x3e, 0x3a, 0x20, 0x9c, 0xba, 0xe6, 0xfc, 0xff, 0xff, 0x04, 0x00, 0x00, 0x00,
    0x80, 0x02, 0x00, 0x00, 0xdc, 0x16, 0x66, 0x3c, 0x70, 0xa0, 0x5e, 0xbe, 0x95, 0x83, 0xf3, 0xbc,
    0xb7, 0xa3, 0x0b, 0x3f, 0xfd, 0x6f, 0x7f, 0xbd, 0x79, 0xf1, 0x78, 0x3e, 0x17, 0xa0, 0x4d, 0x3e,
    0x4c, 0xf6, 0xb7, 0xbe, 0x61, 0x74, 0x8e, 0xbd, 0xe4, 0xe9, 0xab, 0x3e, 0x01, 0x09, 0xcd, 0xbd,
    0x27, 0x8b, 0xae, 0x3e, 0x1e, 0xa1, 0x6e, 0x3e, 0xd8, 0x99, 0xb7, 0xbe, 0xa3, 0xbd, 0x04, 0xbf,
    0x72, 0xcd, 0xc9, 0x3d, 0x3b, 0x1f, 0x67, 0xbb, 0x08, 0x44, 0x85, 0xbe, 0xd4, 0x71, 0x90, 0x3e,
    0xf4, 0x8b, 0x64, 0x3e, 0x03, 0x09, 0xa5, 0xbe, 0xf8, 0x2f, 0xf1, 0x3e, 0x8c, 0x76, 0x89, 0xbc,
    0xd6, 0x62, 0xc8, 0xbb, 0x57, 0x5d, 0x14, 0xbe, 0xb9, 0x44, 0x09, 0xbe, 0xcd, 0xce, 0x7b, 0x3d,
    0xc1, 0xd9, 0x11, 0x3e, 0x86, 0xf1, 0x2e, 0x3f, 0xb1, 0x72, 0xbf, 0xbe, 0x8f, 0xbb, 0x06, 0xbe,
    0x26, 0x1a, 0x3c, 0xbf, 0x64, 0xec, 0x2b, 0x3e, 0x78, 0x61, 0x89, 0xbd, 0x8a, 0x80, 0xb9, 0xbe,
    0xd1, 0xee, 0xa4, 0x3e, 0xd7, 0x09, 0x3b, 0xbe, 0x9d, 0xa4, 0xda, 0x3e, 0x9a, 0xe6, 0x9e, 0xbe,
    0x01, 0xa8, 0xd1, 0x3e, 0x7a, 0x8b, 0xd1, 0xbd, 0x15, 0xb4, 0x34, 0x3e, 0x61, 0x10, 0x3a, 0x3d,
    0xd8, 0x95, 0x58, 0xbd, 0xc7, 0xd5, 0x70, 0x3e, 0x06, 0x6c, 0xe4, 0x3e, 0x24, 0xe7, 0x26, 0x3e,
    0xf0, 0x8c, 0xc0, 0x3e, 0x69, 0x66, 0xeb, 0xbe, 0x2f, 0xd6, 0x8b, 0xbe, 0x32, 0x49, 0xa3, 0xbb,
    0xf0, 0x97, 0x85, 0xbe, 0xdf, 0xf0, 0xe0, 0x3e, 0x7a, 0x00, 0x37, 0x3e, 0x27, 0x6a, 0x8a, 0xbd,
    0xce, 0x53, 0xfb, 0x3d, 0x1e, 0x89, 0x8b, 0x3e, 0x51, 0xe1, 0x72, 0x3e, 0xdc, 0xd2, 0xa7, 0x3e,
    0x30, 0xd4, 0x18, 0xbe, 0x83, 0x6c, 0xd8, 0x3e, 0xa6, 0xd8, 0xa1, 0xbe, 0x58, 0xac, 0x47, 0xbd,
    0x45, 0xc7, 0xb4, 0x3e, 0xc8, 0x6f, 0xfa, 0xbd, 0xc6, 0xf0, 0x80, 0xbe, 0x71, 0x51, 0xa1, 0xbe,
    0x71, 0xc8, 0x89, 0x3e, 0xff, 0x5b, 0xbd, 0x3e, 0x8e, 0xb8, 0xea, 0x3e, 0x45, 0xec, 0x16, 0x3e,
    0x8a, 0x50, 0x5d, 0xbd, 0xba, 0x5e, 0xf8, 0xbd, 0xb8, 0xf7, 0xa1, 0xbe, 0x08, 0xe0, 0x90, 0x3e,
    0x85, 0x2b, 0x50, 0x3e, 0x9c, 0x68, 0xf7, 0x3e, 0x12, 0x46, 0x95, 0x3d, 0x58, 0x0b, 0xbb, 0x3c,
    0xe0, 0x1c, 0xcb, 0xbe, 0x4b, 0x74, 0x77, 0x3e, 0xa6, 0x7b, 0xe2, 0x3d, 0x08, 0x2d, 0xd8, 0xbe,
    0x17, 0x5f, 0x17, 0xbe, 0xad, 0xe1, 0xfd, 0xbe, 0xce, 0x53, 0xb1, 0xbd, 0xa8, 0x39, 0x58, 0x3e,
    0xc8, 0x2f, 0x8e, 0x3e, 0xa6, 0xdd, 0x72, 0x3e, 0xcb, 0x24, 0x01, 0x3e, 0xb9, 0xa2, 0xb2, 0xbe,
    0x5d, 0x41, 0xe9, 0x3e, 0x7c, 0x39, 0x6e, 0xbe, 0x15, 0x2e, 0x1a, 0xbe, 0x48, 0xbc, 0x7f, 0xbe,
    0x0b, 0x80, 0x9c, 0x3e, 0x27, 0x95, 0x89, 0xbe, 0xdd, 0xb8, 0xaf, 0xbe, 0x09, 0x1a, 0x78, 0x3e,
    0xa9, 0x9c, 0xe4, 0x3d, 0xdf, 0xee, 0x04, 0x3f, 0x00, 0x9d, 0x55, 0x3e, 0x31, 0x39, 0x0f, 0xbe,
    0xc2, 0xae, 0xab, 0x3c, 0x87, 0xb3, 0x99, 0x3c, 0xdc, 0xc8, 0x26, 0xbd, 0x2d, 0xc3, 0x39, 0x3d,
    0x6f, 0x2e, 0xc0, 0xbe, 0x55, 0x0d, 0x0a, 0xbf, 0x48, 0xc7, 0x8c, 0xbe, 0x57, 0x3e, 0x89, 0xbe,
    0x4c, 0x71, 0x19, 0xbe, 0xee, 0x09, 0x89, 0xbe, 0x83, 0x26, 0xc1, 0xbd, 0xe7, 0x82, 0xab, 0x3d,
    0x02, 0x64, 0x54, 0x3d, 0xa6, 0xeb, 0x8f, 0x3e, 0x83, 0xf9, 0xc7, 0xbd, 0x97, 0x79, 0x0f, 0xbe,
    0x36, 0xf5, 0x24, 0x3e, 0x3c, 0xe7, 0x06, 0xbe, 0x84, 0xbb, 0xff, 0xbe, 0xc6, 0xa0, 0xa0, 0x3d,
    0x05, 0x00, 0x14, 0xbf, 0x64, 0x47, 0x5f, 0xbe, 0x16, 0xda, 0x41, 0x3e, 0xbe, 0xda, 0x9a, 0xbe,
    0x75, 0x00, 0x72, 0x3d, 0xd1, 0x0c, 0x8c, 0xbe, 0x88, 0xac, 0x87, 0xbe, 0x8d, 0xca, 0xfa, 0xbc,
    0xf0, 0x7b, 0x1c, 0x3d, 0x81, 0x59, 0x87, 0x3e, 0x1f, 0xe9, 0xa8, 0xbe, 0xe8, 0x7e, 0x0e, 0x3e,
    0x7f, 0x0a, 0xb1, 0x3d, 0x78, 0x31, 0x2c, 0x3f, 0xa4, 0x84, 0xb8, 0xbe, 0xd7, 0x61, 0xe5, 0x3a,
    0x2c, 0x0d, 0xfd, 0x3e, 0xea, 0x62, 0xb4, 0xbe, 0xfe, 0xc8, 0x40, 0x3e, 0xa5, 0x10, 0xd7, 0x3e,
    0x85, 0x82, 0xa8, 0x3e, 0x6b, 0xcb, 0xcc, 0xbe, 0xc2, 0x0c, 0xfe, 0x3d, 0xda, 0xac, 0x72, 0x3e,
    0x56, 0x66, 0x94, 0xbb, 0xe6, 0xb2, 0x0a, 0xbf, 0x87, 0xda, 0xc7, 0x3e, 0xe0, 0xed, 0x86, 0x3e,
    0x33, 0xec, 0x4e, 0xbe, 0xf8, 0x39, 0x60, 0x3e, 0x25, 0xe3, 0xa3, 0xbe, 0xb7, 0x62, 0x3a, 0xbe,
    0x10, 0x3e, 0x50, 0x3e, 0x55, 0x29, 0x09, 0xbf, 0xbb, 0x6c, 0xa4, 0x3e, 0x34, 0x6f, 0x09, 0xbf,
    0x99, 0x9b, 0x00, 0xbe, 0x72, 0xff, 0xff, 0xff, 0x04, 0x00, 0x00, 0x00, 0x80, 0x00, 0x00, 0x00,
    0xdc, 0x3d, 0x88, 0xbd, 0x5a, 0x10, 0x8c, 0xbe, 0x01, 0x08, 0x37, 0x3d, 0xbc, 0xb7, 0xc6, 0xbd,
    0x52, 0x7e, 0xa2, 0xbe, 0xe9, 0xcc, 0xf4, 0xbe, 0x75, 0x0d, 0x00, 0x3f, 0x6a, 0x97, 0xf3, 0x3e,
    0xa7, 0x03, 0xde, 0xbe, 0xfa, 0xd3, 0x19, 0x3f, 0x08, 0x84, 0xe7, 0xbe, 0x67, 0x7b, 0xed, 0xbe,
    0xb3, 0x65, 0x88, 0xbe, 0xab, 0x88, 0xaa, 0x3e, 0xb9, 0xe1, 0x7e, 0xbe, 0x0a, 0xcb, 0x99, 0xbe,
    0x41, 0x76, 0xf8, 0xbe, 0x63, 0x1c, 0xbe, 0xbb, 0xe4, 0xee, 0x30, 0xbf, 0xdb, 0x45, 0x61, 0x3e,
    0x82, 0xc5, 0x01, 0xbf, 0xe7, 0xa2, 0x46, 0x3e, 0xcd, 0xb7, 0x51, 0x3e, 0x1e, 0x1f, 0xf1, 0x3d,
    0x4b, 0x31, 0xba, 0xbe, 0x7c, 0x00, 0x4e, 0x3c, 0xf1, 0x42, 0x1a, 0xbf, 0x86, 0xb9, 0x03, 0x3e,
    0x72, 0xef, 0x7a, 0x3e, 0x00, 0x2e, 0x1a, 0x3e, 0xd7, 0x3b, 0x63, 0x3e, 0xd5, 0x40, 0x5c, 0xbe,
    0x00, 0x00, 0x06, 0x00, 0x08, 0x00, 0x04, 0x00, 0x06, 0x00, 0x00, 0x00, 0x04, 0x00, 0x00, 0x00,
    0x08, 0x00, 0x00, 0x00, 0x65, 0x78, 0x8f, 0x3d, 0x21, 0xf5, 0xbe, 0x3d, 0x54, 0xfc, 0xff, 0xff,
    0x58, 0xfc, 0xff, 0xff, 0x0f, 0x00, 0x00, 0x00, 0x4d, 0x4c, 0x49, 0x52, 0x20, 0x43, 0x6f, 0x6e,
    0x76, 0x65, 0x72, 0x74, 0x65, 0x64, 0x2e, 0x00, 0x01, 0x00, 0x00, 0x00, 0x14, 0x00, 0x00, 0x00,
    0x00, 0x00, 0x0e, 0x00, 0x18, 0x00, 0x14, 0x00, 0x10, 0x00, 0x0c, 0x00, 0x08, 0x00, 0x04, 0x00,
    0x0e, 0x00, 0x00, 0x00, 0x14, 0x00, 0x00, 0x00, 0x1c, 0x00, 0x00, 0x00, 0xb0, 0x00, 0x00, 0x00,
    0xb4, 0x00, 0x00, 0x00, 0xb8, 0x00, 0x00, 0x00, 0x04, 0x00, 0x00, 0x00, 0x6d, 0x61, 0x69, 0x6e,
    0x00, 0x00, 0x00, 0x00, 0x02, 0x00, 0x00, 0x00, 0x58, 0x00, 0x00, 0x00, 0x14, 0x00, 0x00, 0x00,
    0x00, 0x00, 0x0e, 0x00, 0x14, 0x00, 0x00, 0x00, 0x10, 0x00, 0x0c, 0x00, 0x0b, 0x00, 0x04, 0x00,
    0x0e, 0x00, 0x00, 0x00, 0x10, 0x00, 0x00, 0x00, 0x00, 0x00, 0x00, 0x08, 0x0c, 0x00, 0x00, 0x00,
    0x10, 0x00, 0x00, 0x00, 0xdc, 0xfc, 0xff, 0xff, 0x01, 0x00, 0x00, 0x00, 0x06, 0x00, 0x00, 0x00,
    0x03, 0x00, 0x00, 0x00, 0x05, 0x00, 0x00, 0x00, 0x02, 0x00, 0x00, 0x00, 0x01, 0x00, 0x00, 0x00,
    0x00, 0x00, 0x0e, 0x00, 0x16, 0x00, 0x00, 0x00, 0x10, 0x00, 0x0c, 0x00, 0x0b, 0x00, 0x04, 0x00,
    0x0e, 0x00, 0x00, 0x00, 0x18, 0x00, 0x00, 0x00, 0x00, 0x00, 0x00, 0x08, 0x18, 0x00, 0x00, 0x00,
    0x1c, 0x00, 0x00, 0x00, 0x00, 0x00, 0x06, 0x00, 0x08, 0x00, 0x07, 0x00, 0x06, 0x00, 0x00, 0x00,
    0x00, 0x00, 0x00, 0x01, 0x01, 0x00, 0x00, 0x00, 0x05, 0x00, 0x00, 0x00, 0x03, 0x00, 0x00, 0x00,
    0x00, 0x00, 0x00, 0x00, 0x03, 0x00, 0x00, 0x00, 0x04, 0x00, 0x00, 0x00, 0x01, 0x00, 0x00, 0x00,
    0x06, 0x00, 0x00, 0x00, 0x01, 0x00, 0x00, 0x00, 0x00, 0x00, 0x00, 0x00, 0x07, 0x00, 0x00, 0x00,
    0x80, 0x02, 0x00, 0x00, 0x1c, 0x02, 0x00, 0x00, 0xb4, 0x01, 0x00, 0x00, 0x64, 0x01, 0x00, 0x00,
    0xfc, 0x00, 0x00, 0x00, 0x60, 0x00, 0x00, 0x00, 0x04, 0x00, 0x00, 0x00, 0xb2, 0xfd, 0xff, 0xff,
    0x00, 0x00, 0x00, 0x01, 0x14, 0x00, 0x00, 0x00, 0x1c, 0x00, 0x00, 0x00, 0x1c, 0x00, 0x00, 0x00,
    0x07, 0x00, 0x00, 0x00, 0x34, 0x00, 0x00, 0x00, 0x02, 0x00, 0x00, 0x00, 0xff, 0xff, 0xff, 0xff,
    0x02, 0x00, 0x00, 0x00, 0x9c, 0xfd, 0xff, 0xff, 0x1b, 0x00, 0x00, 0x00, 0x53, 0x74, 0x61, 0x74,
    0x65, 0x66, 0x75, 0x6c, 0x50, 0x61, 0x72, 0x74, 0x69, 0x74, 0x69, 0x6f, 0x6e, 0x65, 0x64, 0x43,
    0x61, 0x6c, 0x6c, 0x5f, 0x31, 0x3a, 0x30, 0x00, 0x02, 0x00, 0x00, 0x00, 0x01, 0x00, 0x00, 0x00,
    0x02, 0x00, 0x00, 0x00, 0x0a, 0xfe, 0xff, 0xff, 0x00, 0x00, 0x00, 0x01, 0x14, 0x00, 0x00, 0x00,
    0x1c, 0x00, 0x00, 0x00, 0x1c, 0x00, 0x00, 0x00, 0x06, 0x00, 0x00, 0x00, 0x74, 0x00, 0x00, 0x00,
    0x02, 0x00, 0x00, 0x00, 0xff, 0xff, 0xff, 0xff, 0x10, 0x00, 0x00, 0x00, 0xf4, 0xfd, 0xff, 0xff,
    0x58, 0x00, 0x00, 0x00, 0x73, 0x65, 0x71, 0x75, 0x65, 0x6e, 0x74, 0x69, 0x61, 0x6c, 0x5f, 0x31,
    0x2f, 0x64, 0x65, 0x6e, 0x73, 0x65, 0x5f, 0x31, 0x5f, 0x31, 0x2f, 0x4d, 0x61, 0x74, 0x4d, 0x75,
    0x6c, 0x3b, 0x73, 0x65, 0x71, 0x75, 0x65, 0x6e, 0x74, 0x69, 0x61, 0x6c, 0x5f, 0x31, 0x2f, 0x64,
    0x65, 0x6e, 0x73, 0x65, 0x5f, 0x31, 0x5f, 0x31, 0x2f, 0x52, 0x65, 0x6c, 0x75, 0x3b, 0x73, 0x65,
    0x71, 0x75, 0x65, 0x6e, 0x74, 0x69, 0x61, 0x6c, 0x5f, 0x31, 0x2f, 0x64, 0x65, 0x6e, 0x73, 0x65,
    0x5f, 0x31, 0x5f, 0x31, 0x2f, 0x42, 0x69, 0x61, 0x73, 0x41, 0x64, 0x64, 0x00, 0x00, 0x00, 0x00,
    0x02, 0x00, 0x00, 0x00, 0x01, 0x00, 0x00, 0x00, 0x10, 0x00, 0x00, 0x00, 0x02, 0xff, 0xff, 0xff,
    0x00, 0x00, 0x00, 0x01, 0x10, 0x00, 0x00, 0x00, 0x10, 0x00, 0x00, 0x00, 0x05, 0x00, 0x00, 0x00,
    0x48, 0x00, 0x00, 0x00, 0x7c, 0xfe, 0xff, 0xff, 0x3a, 0x00, 0x00, 0x00, 0x73, 0x65, 0x71, 0x75,
    0x65, 0x6e, 0x74, 0x69, 0x61, 0x6c, 0x5f, 0x31, 0x2f, 0x64, 0x65, 0x6e, 0x73, 0x65, 0x5f, 0x31,
    0x5f, 0x31, 0x2f, 0x52, 0x65, 0x6c, 0x75, 0x3b, 0x73, 0x65, 0x71, 0x75, 0x65, 0x6e, 0x74, 0x69,
    0x61, 0x6c, 0x5f, 0x31, 0x2f, 0x64, 0x65, 0x6e, 0x73, 0x65, 0x5f, 0x31, 0x5f, 0x31, 0x2f, 0x42,
    0x69, 0x61, 0x73, 0x41, 0x64, 0x64, 0x00, 0x00, 0x01, 0x00, 0x00, 0x00, 0x10, 0x00, 0x00, 0x00,
    0x66, 0xff, 0xff, 0xff, 0x00, 0x00, 0x00, 0x01, 0x10, 0x00, 0x00, 0x00, 0x10, 0x00, 0x00, 0x00,
    0x04, 0x00, 0x00, 0x00, 0x2c, 0x00, 0x00, 0x00, 0xe0, 0xfe, 0xff, 0xff, 0x1d, 0x00, 0x00, 0x00,
    0x73, 0x65, 0x71, 0x75, 0x65, 0x6e, 0x74, 0x69, 0x61, 0x6c, 0x5f, 0x31, 0x2f, 0x64, 0x65, 0x6e,
    0x73, 0x65, 0x5f, 0x31, 0x5f, 0x31, 0x2f, 0x4d, 0x61, 0x74, 0x4d, 0x75, 0x6c, 0x00, 0x00, 0x00,
    0x02, 0x00, 0x00, 0x00, 0x10, 0x00, 0x00, 0x00, 0x0a, 0x00, 0x00, 0x00, 0xb2, 0xff, 0xff, 0xff,
    0x00, 0x00, 0x00, 0x01, 0x10, 0x00, 0x00, 0x00, 0x10, 0x00, 0x00, 0x00, 0x03, 0x00, 0x00, 0x00,
    0x2c, 0x00, 0x00, 0x00, 0x2c, 0xff, 0xff, 0xff, 0x1e, 0x00, 0x00, 0x00, 0x73, 0x65, 0x71, 0x75,
    0x65, 0x6e, 0x74, 0x69, 0x61, 0x6c, 0x5f, 0x31, 0x2f, 0x6f, 0x75, 0x74, 0x70, 0x75, 0x74, 0x5f,
    0x30, 0x5f, 0x31, 0x2f, 0x4d, 0x61, 0x74, 0x4d, 0x75, 0x6c, 0x00, 0x00, 0x02, 0x00, 0x00, 0x00,
    0x02, 0x00, 0x00, 0x00, 0x10, 0x00, 0x00, 0x00, 0x00, 0x00, 0x16, 0x00, 0x18, 0x00, 0x14, 0x00,
    0x00, 0x00, 0x10, 0x00, 0x0c, 0x00, 0x08, 0x00, 0x00, 0x00, 0x00, 0x00, 0x00, 0x00, 0x07, 0x00,
    0x16, 0x00, 0x00, 0x00, 0x00, 0x00, 0x00, 0x01, 0x10, 0x00, 0x00, 0x00, 0x10, 0x00, 0x00, 0x00,
    0x02, 0x00, 0x00, 0x00, 0x2c, 0x00, 0x00, 0x00, 0x90, 0xff, 0xff, 0xff, 0x1f, 0x00, 0x00, 0x00,
    0x73, 0x65, 0x71, 0x75, 0x65, 0x6e, 0x74, 0x69, 0x61, 0x6c, 0x5f, 0x31, 0x2f, 0x6f, 0x75, 0x74,
    0x70, 0x75, 0x74, 0x5f, 0x30, 0x5f, 0x31, 0x2f, 0x42, 0x69, 0x61, 0x73, 0x41, 0x64, 0x64, 0x00,
    0x01, 0x00, 0x00, 0x00, 0x02, 0x00, 0x00, 0x00, 0x00, 0x00, 0x16, 0x00, 0x1c, 0x00, 0x18, 0x00,
    0x00, 0x00, 0x14, 0x00, 0x10, 0x00, 0x0c, 0x00, 0x00, 0x00, 0x00, 0x00, 0x08, 0x00, 0x07, 0x00,
    0x16, 0x00, 0x00, 0x00, 0x00, 0x00, 0x00, 0x01, 0x14, 0x00, 0x00, 0x00, 0x20, 0x00, 0x00, 0x00,
    0x20, 0x00, 0x00, 0x00, 0x01, 0x00, 0x00, 0x00, 0x38, 0x00, 0x00, 0x00, 0x02, 0x00, 0x00, 0x00,
    0xff, 0xff, 0xff, 0xff, 0x0a, 0x00, 0x00, 0x00, 0x04, 0x00, 0x04, 0x00, 0x04, 0x00, 0x00, 0x00,
    0x19, 0x00, 0x00, 0x00, 0x73, 0x65, 0x72, 0x76, 0x69, 0x6e, 0x67, 0x5f, 0x64, 0x65, 0x66, 0x61,
    0x75, 0x6c, 0x74, 0x5f, 0x69, 0x6e, 0x70, 0x75, 0x74, 0x5f, 0x30, 0x3a, 0x30, 0x00, 0x00, 0x00,
    0x02, 0x00, 0x00, 0x00, 0x01, 0x00, 0x00, 0x00, 0x0a, 0x00, 0x00, 0x00, 0x01, 0x00, 0x00, 0x00,
    0x10, 0x00, 0x00, 0x00, 0x0c, 0x00, 0x0c, 0x00, 0x0b, 0x00, 0x00, 0x00, 0x00, 0x00, 0x04, 0x00,
    0x0c, 0x00, 0x00, 0x00, 0x09, 0x00, 0x00, 0x00, 0x00, 0x00, 0x00, 0x09,
};
const int model_len = 2380;

#endif  // MODEL_H
